/**
  ******************************************************************************
  * @file    cnn_mnist_data_params.c
  * @author  AST Embedded Analytics Research Platform
  * @date    2026-02-21T05:47:46+0900
  * @brief   AI Tool Automatic Code Generator for Embedded NN computing
  ******************************************************************************
  * Copyright (c) 2026 STMicroelectronics.
  * All rights reserved.
  *
  * This software is licensed under terms that can be found in the LICENSE file
  * in the root directory of this software component.
  * If no LICENSE file comes with this software, it is provided AS-IS.
  ******************************************************************************
  */

#include "cnn_mnist_data_params.h"


/**  Activations Section  ****************************************************/
ai_handle g_cnn_mnist_activations_table[1 + 2] = {
  AI_HANDLE_PTR(AI_MAGIC_MARKER),
  AI_HANDLE_PTR(NULL),
  AI_HANDLE_PTR(AI_MAGIC_MARKER),
};




/**  Weights Section  ********************************************************/
AI_ALIGNED(32)
const ai_u64 s_cnn_mnist_weights_array_u64[705] = {
  0xbdbe94ea3dcd1b15U, 0x3cbff0af3e6bc754U, 0xbdba08683dfe7456U, 0xbd770ed1bed4b1dfU,
  0xbe753475be38eaa2U, 0xbd6b74633d81062eU, 0xbdd749283e533df7U, 0x3d8b4bd5bcc9b340U,
  0x3eaf2a773db0873fU, 0x3e31c8693c5b6969U, 0x3eb543d13e6f5296U, 0xbd1d88123bfa61ecU,
  0xbe3d4ffbbe0ed554U, 0xbea4bc03bed0dad1U, 0xbde294a83e15d2ddU, 0xbe1384bbbebb5579U,
  0xbea9b07abe5484aeU, 0xbe3fe802bd261166U, 0xbd31ab5ebec42f6cU, 0xbdf7b633bc875c05U,
  0x3ea594fdbc9784d0U, 0x3d789357bdfafaccU, 0x3da2094b3ec342ccU, 0x3bcccbe9be5c4570U,
  0xbded688e3ced68dfU, 0x3ed8f19b3e139076U, 0x3ce31cf93e1ee04fU, 0x3e0dabf6bcb75ff8U,
  0x3e2f40e43e432fdfU, 0xbd280cd83d8907a5U, 0xbe926dc0be626218U, 0xbdf098293e2614caU,
  0xbe3c40063ca9427dU, 0xbdf11ce93d0243d0U, 0x3ef951a4bd0456bcU, 0xbe01a4e73dd1604eU,
  0x3b6b9a57ba052327U, 0x3e0d2f103da2ec96U, 0xbae8d6d4be014911U, 0xbb3a76ccbd1f0303U,
  0x3d7ecd30be0c4c2cU, 0x3df514a9bd0315b9U, 0xbba9c1d7bdb7ea95U, 0x3d8059973c2a105aU,
  0xbdbeb687bdab3f51U, 0x3cb411813c8b044fU, 0xbd0938f2bd47e341U, 0xbd91ababbe247cbfU,
  0xbe1d965d3cc43626U, 0x3dfec542bc993e1dU, 0xbe34ae5fbe6c3d09U, 0xbdd0331abdb8511cU,
  0xbd8ebaf13d6ccb1cU, 0xbad2200a3c8e5afcU, 0xbd14120f3ca621f8U, 0xbdaa0c9abcd9691cU,
  0xb9b69854bd23abb7U, 0x3db8483cbcb2f890U, 0xbdbd1d87bd1a4fa1U, 0xbdffc1a5bdb1d123U,
  0x3bdb07703d369592U, 0x3c5704f9bccc2ac1U, 0x3a348fbdbd839ae1U, 0xbdbc0203bdf2e8e5U,
  0x3d16ff6bbdcf9cf6U, 0x3d020a3fbd28b307U, 0x3c3f00bb3d23f0ecU, 0xbc63927c3c19e1d4U,
  0x3d668862bd44668bU, 0xbac5e166bdc60b60U, 0x3d52e4783d970669U, 0x3dd511563d107c9cU,
  0x3d957f0d3d2cc469U, 0xbd842fd4bda4beacU, 0x3cf32c153d0dc243U, 0x3d1abd22be11249dU,
  0x3d2f159e3e4c9c29U, 0xbdae8263ba85738fU, 0xbc80bcf3bdb008a8U, 0x3dc9dc463d7c0f58U,
  0x3d014c8fbd881a1cU, 0xbd9ed91ebc9988e2U, 0x3d379972bc18a465U, 0x3d0fe257bb8759b9U,
  0x3c0ecb233dfae2baU, 0xbcedc3dc3bec8cf5U, 0x3cf737a23d013fedU, 0xbd1d8298bbe14ee0U,
  0xbd2bc3133d71e470U, 0xbbfe4ff73aac62c6U, 0xbda4de833d8689e6U, 0xbe6f34aa3bef7e8eU,
  0x3d4da832bcca11b3U, 0xba592dddbbbf6af6U, 0x3d9c4b043d3fd358U, 0xbd8ad70ebc48430bU,
  0xbd83df323c477a3bU, 0xbb84d2cc3d55e1b6U, 0x3ccbe358bd8a9c05U, 0x3c8632433d436826U,
  0xbe3efbeabcf08031U, 0x3d5b9919bc6404c1U, 0xbe6f8d633ce5d1bdU, 0xbe9eb964bd176c25U,
  0xbdf61d44bcbe149cU, 0xbbd640d23c01f7f3U, 0xbe03a981be306a2dU, 0xbe5ec6543d0d0f8cU,
  0xbe16860d3d49f7a2U, 0x3a93b0693c4e24a5U, 0xbe38bdabbe66b39eU, 0xbd51dd663cbc753fU,
  0xbca56acdbce1e288U, 0xbd5e35f7bd5891c8U, 0x3d4d3c403dcef061U, 0x3e372dd7be10b12cU,
  0xbdcf00e9bdc2adfbU, 0xbd9ed45cbda24d8aU, 0xbd883bb73c6df55aU, 0x3afde03ebdb40c51U,
  0x3dc8ad033961e887U, 0xbce243e4bcad967bU, 0x3d344d743d981b0fU, 0x3db543ddbe141a05U,
  0x3dc34b4b3d4ae026U, 0xbd63ca1a3d59f08eU, 0x3d88fafb3d4330ddU, 0x3e189a4f3dca06acU,
  0x3da51b12bd482fc0U, 0xbc9d72bbbd23c673U, 0xbcfda121bc3ab431U, 0x3d7b6e94bce80ac8U,
  0xbd7d24ddbdd34900U, 0xbbe24c9e3c8fa6cbU, 0x3d861c693e12c52cU, 0xbc695b65bd5216f3U,
  0x3d3225023e188b56U, 0xbd8abb163d9529b0U, 0x3d8d5bd43ce6ab0bU, 0x3c77bf083e00da64U,
  0xbd0f39b6bdd1967dU, 0xbca5dd133c29a02aU, 0x3d19465a3c6cf001U, 0xbbc8ad19bd4215c4U,
  0x3e068147bdd1abb7U, 0xbd28b14fbd239025U, 0x3dbe4aacbcc224fdU, 0x3e038eed3dabb992U,
  0xbc913c95be481e8fU, 0xbd325fb1be64ff73U, 0xbdb349a6bd586be0U, 0x3da0e9e3bdd02bd8U,
  0xbc66deeabe22bf28U, 0xbcde08b1bd9bbe83U, 0xbc1d0d613d023c21U, 0xbd5687f7bdfd14e7U,
  0x3d171487bddc14c5U, 0xbe254b3cbe0da21fU, 0x3c2ef9113ce2b441U, 0x3c83a301be044cceU,
  0xbbbe5ffd3c9b1a2bU, 0x3cf2e2a13c9ce34cU, 0x3d947a4a3d76a580U, 0x3c844d39bd3110ccU,
  0x3d009d423d507898U, 0xbc1e3b9ebc221728U, 0x3c11cf90bd0c518dU, 0x3ddab8e23de1ea75U,
  0x3e0e1108be1066cfU, 0xbd8e6dc8bd8aa821U, 0x3d6dadb7bd7d7c10U, 0xbd1d643a3d81bdedU,
  0x3abbd7ee3d59961aU, 0xbcc118383baeb9c8U, 0xbc3344a3bdea1383U, 0x3d41d95c3e45b7aaU,
  0xbdc217ff3d0213b2U, 0xbc7908d33c33e2dcU, 0xbd801b8dbdf17867U, 0xbd974d643e162d6bU,
  0x3d5b778fbdc4ce65U, 0xbde8a673bd89fcf6U, 0xbc45b29a3ddb6c16U, 0x3decaa203e78ed0fU,
  0x3c0e040ebd365398U, 0x3d8fc2be3d458587U, 0x4249cbdd4263a117U, 0x41772be440c0c246U,
  0xbdd54b0cbe3f7165U, 0xbcc9c4a0beb7c232U, 0x3e581a8e3d6bf2a4U, 0x3ddcdaa63e0393cdU,
  0x3da48a353d2b8556U, 0x3d900e09bb8187eaU, 0xbc9225b6bc4c1e8bU, 0x3dc97c6f3daa2ce1U,
  0x3e14656b3d59a5b8U, 0x3ba4c1f0bd7d049dU, 0xbc1f6ce73cf27b33U, 0xbc4edeadbd62f2f6U,
  0xbdd68067bdecde0dU, 0x3dbdd3463d4eb0cbU, 0x3e481149bd267efeU, 0xbe2edcf0be3f6474U,
  0x3c5d478ebc8c4b50U, 0xbde02965bdce6ebfU, 0xbe1e3ad0be0d4267U, 0x3dbe295b3d8f7569U,
  0x3fdf4ecf3bbd95b8U, 0xbd93583abf0778deU, 0xbd3e1c0f3c1f4991U, 0xbe2687b9bdac5fadU,
  0x3dd09f55bd199800U, 0xbd0c0d98bd54014bU, 0x3dac7f003e3d52f4U, 0xbe1141e13da4aaccU,
  0xbe42eec0bd74e9d9U, 0x3d007713be011e23U, 0xbbc9af2cbbd97887U, 0xbe09bef3bb5efc8bU,
  0x3dce7413bd38347fU, 0xbce12bcabe2f6e7dU, 0x3d96b7ebbb6ca506U, 0x3dad3082bdbbb17cU,
  0xbdae341dbbda3e8aU, 0x3d46ae9c3d1d65a9U, 0x3dd68e0bbdae1db9U, 0x3cc8c9423d4c3cceU,
  0x3d78dbe73d9ccc95U, 0x3d5f4edd3e000611U, 0xbda1e7053d5bdb84U, 0x3cc66e0e3e0923d3U,
  0x3de16e233db4a896U, 0xbc07f1c73acdb144U, 0x3d696d6ebcf88d51U, 0xbe1e8cb13d100dc3U,
  0xbccea7b6be5806ceU, 0xbb8a2fcfbd808da8U, 0xbd7c055abcdcb844U, 0x3ba1f9b4bd8e441cU,
  0xbd62e3f33d8db383U, 0x3a0aa0f43daf8fd9U, 0xbe2b6e73bc146407U, 0x3d4082cfbd55eb60U,
  0x3dd4ac62bcb41331U, 0xbd8cc2923d9c0180U, 0x3c622981be074555U, 0xbd49ab503d0edb67U,
  0x3db72bbc3dff0bc6U, 0xbd73847dbd0c4c75U, 0x3d24797b3d016321U, 0x3db1985c3ca3ea4fU,
  0xbcca798ebb14ed42U, 0x3d529b6e3cec4d7aU, 0xbd1e26be3d4bdb92U, 0xbdb3b26ebe896211U,
  0x3d16dfe23ce303acU, 0xbd53a6b13d2504d7U, 0xbdf903a7be0287f2U, 0xbcb6ec59bcf2641aU,
  0x3e96e31c3e0b6a3fU, 0x3d8a27b33e35556dU, 0xbd972e12baa09e59U, 0xbcc7dff23e1d975bU,
  0xbe08e610be2306b5U, 0xbe0bbd4cbcc401deU, 0x3e22759f3e1e117dU, 0xbd48340c3d596f17U,
  0xbdf05e5cbe46af59U, 0xba01fc12bd739ddfU, 0xbd69e542bcf04e73U, 0xbd772da63ca3693fU,
  0xbe44fd4bbdbbce50U, 0x3cbc1864be56e88cU, 0x3be9de113d9038d4U, 0x3e12bda83e12b7ceU,
  0xbd8224013cc886a5U, 0x3b067327bd710815U, 0x3d90aaa33cb5e8cdU, 0x3d22c281bbcd77b5U,
  0xbb2c0b0b3d1b1b02U, 0xbc4b2b243d3eb77aU, 0x3cb130d63c679adbU, 0xbd9052d2bd54e1dcU,
  0x3ce93142bda35555U, 0xbe94bdc8bdcb060bU, 0x3e2a61d3be47f229U, 0x3d87b7b83b17da06U,
  0xbc85ff473ccea252U, 0xbd4e02ccbc9a3effU, 0xbcc06837bd714f67U, 0xbd2a4295bcf1d76fU,
  0xbe4a43f2bd31b593U, 0xbd4b2e453d659456U, 0xbdc150ddbdcb678cU, 0xbe3f9ba7bd0199f9U,
  0x3ce7526e3ccfc82eU, 0x3c773a753e6e8187U, 0x3dcaf35eba7b3626U, 0x3e8f7a133dcfcc4bU,
  0x3dec519e3e21d7b0U, 0x3cf63241bc64a76fU, 0xbd46a17dbb083816U, 0xbb9e54c63d19a7aeU,
  0x3d829adabd0b0e72U, 0xbd60829fbb721d28U, 0xbca0c5cbbd210378U, 0xbe243858bded4445U,
  0xbdaa2664bd940174U, 0xbdd8b8753cafe7a5U, 0xbd8ea0cdbd2b7662U, 0xbda2f9ecbdcd462bU,
  0x3e346c26b89f1b47U, 0xbe1853013e1cddf4U, 0xbd0aac54be0f4bb6U, 0x3e1ac2523deaea92U,
  0x3e1669fa3e336affU, 0x3a120f95bdc09d0eU, 0x3d21d5bebdb4bc64U, 0xbc55bb6d3db9be26U,
  0xbceb6ae0bd3a37c3U, 0x3dd4b0023e03e3b3U, 0x3cb4a2f33da0099dU, 0x3d0b0ad03d15a8d6U,
  0x3c05c5c43c175416U, 0x3d5d2a583dc32af8U, 0xbd3c1b943c369d9fU, 0xbd04f0e6bd4efdb8U,
  0xbe0184f23c8ac798U, 0x3d669e703c92aa8bU, 0xbc00c01a3d01f5b2U, 0x3d1d414e3d32b66dU,
  0x3d1848e63cd2b6dcU, 0x3d221e4abd3166e1U, 0x3ddebce33e047328U, 0xbd9843023d2bfe3cU,
  0x3d435951bdd356bfU, 0x3bed460d3e1d91f8U, 0xbbb833e7be5556ccU, 0xbda010ebbd9ef2c1U,
  0x3dc0a7133e36aa63U, 0x3d11fb0fbe5f5c8aU, 0xbe2ae18e3df3ca09U, 0x3da339613c36ce00U,
  0xbbec3237bc06a113U, 0xbdb4b9693d86c15dU, 0xbe1f70d73c498caaU, 0x3ce124cbbd8ec030U,
  0xbe8568d43d1da696U, 0x3e108130be0897deU, 0x3d8277d93d6fcc69U, 0xbceefd49bbad05b3U,
  0xbcd9acb63a4b39c8U, 0x3e06795e3d12fc12U, 0x3d5172cdbc42127aU, 0x3c810f6a3c9d804eU,
  0xbd53993cbc61d3bfU, 0xbc0f59dc3cee7351U, 0xbe0844b4bd283e5aU, 0xbccb2481be22b387U,
  0x3b28651fbe2f595eU, 0x3c775a9f3d20e4baU, 0xbce0a62bbcd28600U, 0xbdabe32abceb17f6U,
  0x3dbfa8ccbdc965ddU, 0xbd8ca0883d4ec9cbU, 0xbc06d0f8be0059bdU, 0xbdec189ebe33e95bU,
  0xbe67b3a13d62d759U, 0xbc9bdde0be4beba8U, 0xbd826bf13d6d5b32U, 0xbd2e22d93dd1e705U,
  0xbdcc692fbe1e3ee2U, 0x3cc49b64be4a1ef7U, 0x3b0b0f683df3abd1U, 0xbd194510bd482aeeU,
  0x3d650ee73c9aeaadU, 0xbc9035d33ccced33U, 0xbc3feac73d132d93U, 0x3d2e0452bbcbc916U,
  0x3df075853e1cdcceU, 0xbd9ed9b3bd51ceacU, 0x3e04ec03bd65c7ecU, 0xbe7cb9243deb19a8U,
  0xbd298709bdef0c8aU, 0x3dd16b57bbf90859U, 0xbd7e01513e06115eU, 0xbd6457f7be2baf53U,
  0xbe705a53bb96a3faU, 0x3e16a8bf3d966670U, 0xbd958faa3bc48891U, 0xbc7f11063e0b4a31U,
  0x3e151e3fbdec2066U, 0x3d9619f13db205b3U, 0xbac3fefabca3ee75U, 0x3d927b31be1cbf7bU,
  0x3d0d42bb3de8b3f8U, 0x3af829e4bd0bb6e9U, 0x3cc37019bcf086e4U, 0xbc4506923dcc8fefU,
  0xbe1959b7bde5ce9aU, 0xbdd5e875be2355faU, 0x3dfca0c7bde5890aU, 0xbd86a7bf3dc6a736U,
  0xbdd09a50bd26afdfU, 0x3c9ffa0dbe45eb7aU, 0x3e4ef83d3da58b10U, 0xbd03d0143e12f773U,
  0x3d5b28023dcfedafU, 0xbd102a383cfd4a6cU, 0x3e146956bd28ac7cU, 0x3cbbbef83ca50510U,
  0xbe33e94fba3bc3c9U, 0xbe015355be8737f4U, 0xbd0e96b3bd02e9a6U, 0xbe207d70bd490988U,
  0xbe151f2dbe30d8eaU, 0x3c666a02bd08dc98U, 0xbd9301febda2a1b6U, 0x3deba4dcbce0a338U,
  0xbcd076a43dbb8042U, 0x3c823637bc249581U, 0x3cd118a53d860886U, 0x3d0aed733de205c8U,
  0x3d7d0a513cfa9bd6U, 0x3e019b003d91a7b1U, 0xbe4cc9673cf568dcU, 0xbcce3233bd00b353U,
  0xbdbcd844bd994be5U, 0xbd83299ebe40da7cU, 0xbda6a7edbda77b6bU, 0x3d95374f3d2cc698U,
  0x3d9451dc3d22ef6dU, 0xbd8644d1bdb0acd6U, 0xbde0c750bba1a720U, 0xbd30490ebcb68ae3U,
  0xbe5fe5bbbd8241a9U, 0x3bb8634e3dfdf23bU, 0x3bd0e892bdf21091U, 0x3bffdca83da10e73U,
  0x3e333d11be6142acU, 0xbdba623b3d754389U, 0x3bce39c7bd1d7ab4U, 0xbdcde47bbe513a49U,
  0x3db473ab3df19c27U, 0xbe75d481bd528e78U, 0xbd6d4367bdb82895U, 0xbca1c5fabcf23450U,
  0xbb8bc2e83ca12f3bU, 0xbd8242cfbce9a89fU, 0xbd8634aabd8d0281U, 0x3c298c41bd06a887U,
  0xbc1e5e743cba168fU, 0x38f17e6bbc9816f6U, 0x3cf2a05dbdf2c53bU, 0xbcbbb39c3cf917b6U,
  0xbda37ff93e02ff6cU, 0xbcd1f842be2f97beU, 0x3e0879f7bd05dbb7U, 0xbb6b36843ca809eeU,
  0xbd3e685dbb365528U, 0x3d3804783d045047U, 0xbdb68656bd6fa4d1U, 0xbea267e5be495dbfU,
  0x3e2cdd1dbd94bc5aU, 0xbd17b2aebb964bc9U, 0xbc578a1b3d2ce671U, 0x3d6e021bbd5a535bU,
  0xbb957a233e185e37U, 0x3c57587f3d776179U, 0x3d5de4cc3ca3f210U, 0x3d4e48c8bcb68bbaU,
  0xbc583d49bd8ba4a5U, 0x3c6d91993d105070U, 0x3de0be9d3d0948c1U, 0xbda14a8c3dde1646U,
  0xbd44fed0be6c0412U, 0xbd4aca20bd2ec7c0U, 0xbc06ced53c1a91f6U, 0xbda2c62fbde38e1dU,
  0xbcee99e9bd6c880bU, 0xbeaa30ccbe12f000U, 0x3ac9f726bddfebadU, 0x3da800153d4afa09U,
  0xbe23e22e3d9ce3faU, 0xbe0674b7bec9619cU, 0x3d6a0a2ebcb73482U, 0xbd4729ebbd16fd59U,
  0xbe940119be2dbaaeU, 0x3a76754e3cab16e0U, 0x3da6a795bac72b1bU, 0xbd98a008bca71c52U,
  0xbce907f0bd990f9cU, 0x3da61ea33c5a36ddU, 0x3c95253e3d1ccff4U, 0xbc032c853c88d37cU,
  0xbc7dbdab3ca7a011U, 0xbcd226e53dc30c50U, 0xbac249c1bc97a0f5U, 0xbd4d7c0c3b23c78bU,
  0x3c18b7a6be421d1fU, 0x3bf4b9103bdfd6b3U, 0xbd089ed1bc3818e6U, 0xbc9327c6bc2bd831U,
  0x3d7f5880bc0b51d7U, 0xbde51760bda4c7b9U, 0x3e08613b3d94a590U, 0x3c8363193d3c204aU,
  0xbe92eaf53ce64980U, 0x3dfca791bd1de8aaU, 0x3bcec6813e42469eU, 0xbdc82b4d3cc0540fU,
  0x3cc68866be7a0db7U, 0xbc50d5a03c9f1122U, 0xbd0b96e43e6917eaU, 0xbb93e1c1bd6c7e81U,
  0xbe231c193d744c1fU, 0xbe7f783cbe6d5311U, 0x3de40d1fbdeeebe3U, 0x3d4839f93de2d056U,
  0xbc253f29bdccc5faU, 0xbdd6b1f7be55fa42U, 0x3c9f70e0bcf2aac1U, 0xbe0e0ef73cb0468cU,
  0x3e1b1ea8be1197f2U, 0xbbc6d511be2a7a2bU, 0x3d2986513d4993faU, 0x3c5f8276bbd9e229U,
  0x3db7847c3d731f31U, 0x3ca5c9f83dce91f1U, 0x3da85f6c3c612ac1U, 0xbe6f0f233d017be3U,
  0x3d5216f5bdc1b41aU, 0x3db19a753d9bff0cU, 0xbd19b6703df46ddfU, 0xbcce30bdbdec67bdU,
  0x3e1e65ea3c72bfb3U, 0x3e17b1e53d9b9642U, 0x3c812ee73d3cb9b1U, 0xbdd121dd3d29b548U,
  0x3cb1c3c33cd0cdfeU, 0x3c43e6f5bc044244U, 0xbd4028cd3d7cfb12U, 0x3d72ecbbbd177541U,
  0xbde16b83bdb11685U, 0x3d5ed49e3e25dc96U, 0x3d9fa0363d9ef7c5U, 0x3ddfb28e3da52c93U,
  0x3e327f923e0ec93aU, 0xbcdc7ffabd3c7079U, 0x3dad00823d14d7e8U, 0x3dab79af3d51624fU,
  0xbca2fefa3e4bd0aeU, 0xbd92ee933d0852ebU, 0xbe634fccbe186365U, 0xbd9499f6bdf80607U,
  0x3de05d123b740308U, 0xbbe53c263e0236a0U, 0x3cbb8b623bd3e382U, 0xb9459c53bd43f135U,
  0x3ddacc61bcce2131U, 0xbc15bec33c8f7937U, 0x3dd06f193db2a0a6U, 0xbda8e109be86d6b8U,
  0xbd5126283ca51577U, 0x3d5d65c53d6c54dfU, 0xbbda16df3d42b6eeU, 0xbd7da5e53c99e4b3U,
  0x3d6a4c63bbca6538U, 0xbca362cdbe1f13ceU, 0x3daf01973dac925aU, 0x3d33760d3c1e605fU,
  0x3d9616063dd51cfeU, 0x3cfb11fa3c6cc0c7U, 0x3d4df63ebbf2b6deU, 0x3df500d33dee7886U,
  0xbccfebfd3d337dd9U, 0x3d8e8d9bbdef32cdU, 0xbe828022bcc168e1U, 0xbd8f5753be62b5fcU,
  0xbdb90da3bd5d2746U, 0xbe212fbbbe8645b8U, 0x3dc0c8f43d8cb2f8U, 0xbd9144c5bddff5ecU,
  0xbe3264eabe038609U, 0x3c3372cbbd99adf0U, 0xbe1399003cc2e1f3U, 0xbc8606c3bdfaa1bdU,
  0xbc7aace8be2b0ba2U, 0xbd99ee48b7ca8bf7U, 0x3d40d74abd0818b2U, 0x3d6b849abd0aa15eU,
  0x3e00bcf03da561a0U, 0xbe06868b3d9dca6fU, 0xbd1774d1bde15587U, 0x3d0143353dc68a47U,
  0xbd527895bcd2920eU, 0xbd04a4ccbe3f3757U, 0xbc5074abbd8ff993U, 0x3c2f55ae3e11a7f8U,
  0x3cb60a3fbd38f714U, 0x3dead2e33d0fa633U, 0x3d8fb29a3d953c76U, 0x3e0e498b3dc16d5bU,
  0x3e7cf1543da88328U, 0x3e50b1e13d5ff9d9U, 0x3dc8e4af3b8a0ca8U, 0xbcc0e00bbd0883f8U,
  0x3db822713daf36d6U, 0x3ebac964bc44314dU, 0xbd641be53dfa5c35U, 0xbe6a25f03d5d500cU,
  0x3e5b1bd8bef5e12fU, 0x3b93be95bec4e264U, 0xbf88b68c3f40de67U, 0xbe83d2a13dc9c74dU,
  0xbe8c46113d572a81U, 0xbe142109bda2dbf7U, 0x3e21271ebde37a3dU, 0xbf33d3153e0676c2U,
  0x3f171e143e98c027U, 0x3d3484bc3db86e7aU, 0x3d2f1c573e64a488U, 0x3c21d46dbd0fbf7fU,
  0x3e21556cbe95fda9U, 0x3e442ba13e635e44U, 0x3e16624cbf0b96aaU, 0x3dd0b5033e9e7629U,
  0x3f27b9cfbea7aa6dU, 0x3ebd3cfebec1a78eU, 0xbd6c899fbf34a1dcU, 0xbf1bbdd3bdc5aac3U,
  0xbbd33a84bdbdedb4U, 0x3e4709633e83c1a8U, 0x3eb932d0bedb1d17U, 0xbe1e77efbf03e443U,
  0xbeb480ba3e29527dU, 0x3e7f6d77bd50b8b9U, 0xbe8a6b6bbe2df397U, 0xbebb8c8fbda1ef72U,
  0x3e9c216abe9135a3U, 0xbde5a0823eb51d4fU, 0xbe5f8aefbe2ac6faU, 0xbf1f7cf43e852c81U,
  0xbe1d92fdbe7799baU, 0xbf0815b1be3b7448U, 0x3cc76240beb71e3fU, 0xbe45ae8f3f4523fdU,
  0xbe64b4dc3e016125U, 0xbe58aec33e1742adU, 0xbebfd1acbf23497eU, 0xbe96c954be95c7ecU,
  0xbee392f7bd450d50U, 0xbd1149c4be984a1bU, 0x3da26832bf1e052fU, 0x3d9e1c2ebf20c149U,
  0x3f1202d2be9654d5U, 0x3e0426e53d7d2c01U, 0xbd4f54ab3eb334f5U, 0xbee47858bddb2057U,
  0x3d6ed7a6be9ab38fU, 0xbd47c35abeb85d6aU, 0x3e5ef1f2bd379a2eU, 0x3dd8e249bdbf3f05U,
  0xbe380d5fbe7b0257U, 0xbd76693cbdaab332U, 0x3e8ebf60bf24184eU, 0x3da4c28fbd9a743dU,
  0x3e6d7b35bcec98cbU, 0xbde89d863e92bc31U, 0xbf4f31de3f1c6cd4U, 0xbea9f343be5b3e4cU,
  0xbf06847abebe371eU, 0xbe24dbc2be654237U, 0xbf1a1ad93ebfb930U, 0x3e4a2de63b788063U,
  0x3daf3434bd1b2751U, 0xbf08cc81befba114U, 0xbeac775fbf7ce445U, 0xbf0b9ecf3d9cbd5bU,
  0x3eba7b33bf2bc1b8U, 0xbde4295f3e253125U, 0xbd0fa8cabcca2e90U, 0xbe3db42fbeaccb79U,
  0xbe2db1b13e045c13U, 0xbe7bbbbabe82391bU, 0xbf1ca367bea28f49U, 0xbe543b773d3eaf67U,
  0xbf039a733d35cce6U, 0x3e48bc973ed5355aU, 0xbe087fb0bee82912U, 0x3e861256bc538e18U,
  0x3e4b09903f6baeecU, 0x3f2c466a3f1d31e2U, 0x40ce53db3efe139cU, 0x40a75f7341587414U,
  0x410bf2b840e1f676U, 0x4136a0a240c55060U, 0x40c4dfa7409cf67bU, 0xbf56aa78414cc93dU,
  0xbf37c1f4bf1a5a9dU, 0xbf2e15a9bf2db0ecU, 0xbf386cecbf4f8516U, 0xbf12ea8ebf16c687U,
  0xbf2ca2c5U,
};


ai_handle g_cnn_mnist_weights_table[1 + 2] = {
  AI_HANDLE_PTR(AI_MAGIC_MARKER),
  AI_HANDLE_PTR(s_cnn_mnist_weights_array_u64),
  AI_HANDLE_PTR(AI_MAGIC_MARKER),
};

